{
	"activation_encodings": {
		
	},
	"param_encodings": {
		"/ssd_mobilenetV2_without_ABP-NMS_Q/685": [
			{
				"bitwidth": 16,
				"dtype": "int",
				"is_symmetric": "False",
				"max": 0.984115421772,
				"min": 0.0,
				"offset": 0,
				"scale": 0.000015016638769695582
			}
		],
		"647":[
			{
				"bitwidth": 16,
				"dtype": "int",
				"is_symmetric": "False",
				"max": 1.380036115646,
				"min": 0.0,
				"offset": 0,
				"scale":0.00002105800130687419
			}
		]
		
	}
}
